110011001
100101001
110011101
100011100
001001111
010110000
000111101
010100010
101011011
111010111
110011101
011000001
101000011
010111100
111011100
111010111
011000110
010100101
101011110
100100000
100111010
110001100
101010110
111000011
001000110
110111110
010011010
000101111
000110110
101010100
011111001
000010111
101100110
000111100
101010001
010010100
010101111
010100011
101011100
100010011
100010011
000101001
111101011
100111101
101110001
111101101
110100010
001111111
000101010
110000000
100110010
101101001
000110111
100110110
100010100
010110011
010010111
100001010
001000000
101011000
010101001
100000100
111001011
011101011
110110110
110000010
110000010
101011100
001011100
100000001
101010111
110000101
001110111
101010010
100110011
101010000
000110000
101011001
100001000
011000101
110011001
101000010
110110010
000110110
001111111
100101100
110111010
010001101
011001101
110110100
010000001
001011000
110110100
111000110
001011010
110000101
011010111
001000101
011111010
101000001
